04
fe
11
03
f2
0a
21
17
ef
e1
f2
02
c7
fb
e2
ee
f3
f9
0b
1a
fd
22
ef
09
17
02
ee
ec
f5
06
e9
f9
fd
0f
07
0a
f0
fe
11
25
e1
25
22
18
06
f8
25
2e
2d
23
0a
e3
ff
12
e0
0a
0c
11
e4
f4
f5
e3
2c
f2
05
f6
26
20
10
cb
15
11
13
ee
2d
d3
ff
17
14
33
fc
eb
dd
e4
f9
01
0c
1d
df
26
ec
0d
f4
ee
06
3e
fe
e8
dd
d7
12
16
26
e6
0c
db
ed
ed
e6
09
0c
15
f1
0c
ee
ea
33
01
13
17
0c
0f
ef
cb
f9
ed
db
35
eb
dc
e3
04
19
1e
2e
1a
19
18
c3
fd
2b
0a
2f
1d
f8
09
ad
f8
fc
0a
f5
fb
ef
ed
e9
d6
01
fe
e0
fb
03
ec
ef
f9
4b
f9
32
db
20
14
16
e3
3c
09
3a
16
c6
2b
ab
f2
0c
d3
0d
f3
fe
07
dd
17
02
f5
cc
1d
12
f2
f4
2d
07
ea
20
0e
e8
ef
d4
ff
39
f4
37
fa
dd
37
ea
31
f6
fd
fa
04
0f
ee
d5
47
f9
cf
e8
4b
ee
14
10
03
1f
de
1c
dc
14
28
dc
d2
fb
e8
eb
01
0d
15
10
ec
25
fa
f2
32
15
e0
f4
0e
13
ec
05
48
ed
fb
e8
42
12
ec
0d
f7
f9
15
f0
f2
fe
eb
76
33
dd
fc
f4
f9
ff
e4
db
17
2d
f6
ef
06
b2
08
da
1a
f0
0e
e0
e3
23
0d
0d
0e
f1
0a
e6
0a
3c
0e
3b
ce
fc
14
15
ea
0d
00
f3
eb
39
e4
14
09
e5
fe
e0
4b
08
f5
e3
18
1c
fe
11
f7
fc
fd
19
e3
23
f9
3f
08
0d
01
48
d4
f6
03
15
fe
0a
d8
02
17
1d
14
d8
5d
f5
ed
21
1d
f2
0f
f9
19
d9
38
34
16
f7
e7
53
e4
07
3e
30
f2
08
29
e5
ea
18
04
1a
40
de
dd
e5
2c
e9
f2
e3
0b
e1
13
01
f4
f5
f7
26
16
38
e5
58
ff
0f
35
f0
30
e3
1a
e1
15
ec
f5
11
33
ee
b7
e9
34
f0
0c
12
13
d8
2b
16
f9
2c
fc
f8
06
32
e9
7f
e5
28
2f
f8
16
e7
20
fb
ec
00
0a
1c
3b
11
20
f1
3a
06
f6
01
18
14
04
0e
ec
e4
1e
0b
0f
04
d0
30
1c
24
2c
df
fa
fb
f8
bf
e4
e9
16
0b
32
ee
fa
a1
3a
05
21
ee
09
f9
e4
17
f7
1b
ff
f0
f7
2d
ef
59
e7
f9
3a
cb
05
16
0e
d3
e7
17
fc
00
23
09
f0
f2
2f
ec
f6
1e
ea
43
2c
06
fc
06
ea
ed
f3
39
f3
5b
1a
ee
4e
fd
05
f0
2e
10
f2
de
02
db
f2
f0
09
11
31
0f
da
fd
06
3a
fb
40
f4
07
08
de
fd
1c
d1
42
12
d1
17
f6
20
00
06
1c
03
29
f1
05
0f
10
eb
dc
51
fa
f0
01
f1
49
d7
2a
08
f9
ea
eb
03
0b
0f
04
0c
e5
f1
0b
f8
00
ca
d3
f8
f6
dd
e4
31
fd
18
f5
56
de
ee
03
03
1c
e3
20
ed
bf
e2
0f
1e
4b
01
3d
31
dc
e3
05
ce
11
00
d6
f9
32
07
fd
0f
20
09
12
3f
f3
06
f0
f7
00
be
20
e1
f9
26
fc
ef
39
0c
3a
0f
0a
fc
00
09
09
07
33
d0
ff
17
f4
15
de
0d
f6
40
08
e1
e4
28
04
fd
19
09
de
e9
2c
fa
2a
f0
40
1d
0d
1a
02
cc
fd
1d
17
f1
03
12
f9
d5
15
10
c1
34
04
0f
03
f6
e9
06
0c
f7
1b
eb
06
c6
20
14
2c
20
13
13
24
f4
2f
ed
d8
0f
2c
e0
00
df
ef
04
e0
34
dc
f6
e2
eb
b3
1e
1e
d1
ed
f1
fd
d3
26
f6
29
16
2d
db
42
1c
22
32
00
0f
db
13
0c
de
2b
fa
00
34
ed
10
11
03
93
19
1f
e2
0b
0d
f2
25
fe
d5
f9
33
07
fe
07
f2
05
ea
0a
15
c3
fe
21
d0
ec
e7
e3
33
ee
12
00
fe
c4
ef
35
00
ec
08
1c
e4
4b
f1
16
13
0c
ec
16
05
37
d7
f1
e7
c3
e8
07
db
fa
f2
05
4b
eb
04
00
f5
c3
fd
37
00
e6
06
03
d5
13
14
0e
3b
33
f2
05
fe
38
f8
03
0e
b9
fd
10
ee
e7
d3
f6
43
06
05
22
04
d5
f2
40
f7
fc
d3
fc
d5
20
fa
0d
15
ef
03
e1
07
3b
fe
02
f9
dd
03
f9
c7
dd
e8
d4
25
21
f1
15
ed
d7
1c
4e
d5
19
e3
ff
f0
19
1b
0f
fe
ed
fd
d8
f9
39
ff
ea
02
c8
e2
ea
d6
fd
00
e5
2c
e6
e6
fb
cf
04
39
41
e6
fa
d8
f8
f7
2b
e7
05
39
1f
e4
cf
00
e2
eb
f6
f3
ba
fa
ee
e3
e5
f9
fd
39
c2
f6
13
ea
d1
05
3a
f9
e5
ed
fa
dc
eb
ed
fd
0c
f2
f8
fc
33
38
d5
bd
fc
e9
e4
02
bd
06
f8
0a
02
f6
f8
dc
21
ec
1e
24
fa
1c
07
04
f2
f9
f6
e4
22
e4
f1
e7
fc
2a
e7
e1
ee
03
0a
05
ee
de
0d
e8
25
0d
26
ed
f4
13
d9
36
f8
e8
04
10
de
21
04
df
3c
0d
de
e1
10
1a
cc
17
ff
1a
0a
fd
17
f8
e9
08
45
e5
e8
0b
aa
df
13
18
d8
2f
dd
f4
ee
17
f7
fe
13
f4
fc
bc
09
fb
c9
21
df
f6
ed
ea
eb
e3
09
0c
3a
f8
19
2a
21
08
0a
66
37
ee
16
0f
f8
15
0c
17
15
00
1f
ff
0d
31
27
1a
08
f9
e2
03
cd
e3
10
00
24
f0
19
01
18
0e
01
13
01
11
11
e2
08
0b
14
ef
22
e5
01
f3
f8
06
fc
d3
14
0d
f5
db
dc
14
0f
fa
2a
e7
f0
0c
fb
ec
c1
28
08
d5
0e
00
00
25
ee
12
1c
0d
27
0a
f1
3c
e5
f4
e7
f4
1a
1d
f9
ee
f2
f2
2a
ea
15
ff
02
20
f4
3e
dd
ec
d9
ee
07
1f
08
08
ee
da
08
1c
f7
f3
dc
eb
26
f5
e7
ee
e9
02
f0
ec
09
0c
11
0f
f4
d3
ed
1a
df
06
f1
f3
16
11
22
ec
22
11
b6
f8
26
23
f7
f7
df
ff
d4
e3
10
fc
f7
ff
50
1a
ec
2a
fd
0f
f1
fc
14
ed
ec
17
dc
e9
0d
d3
f6
f3
e1
df
12
15
eb
08
24
db
02
2f
0a
0f
fb
f0
25
10
fe
f4
d4
02
ee
0f
10
14
11
38
14
f8
ec
3b
f9
fa
29
23
fd
13
d7
eb
f6
f9
f8
00
25
0a
08
00
0d
1e
e7
fd
e4
ff
03
28
1d
10
27
27
00
13
d0
09
09
d3
f8
13
e2
29
0e
f7
fb
0e
dc
30
e8
e9
1e
15
28
1a
08
df
f5
05
ff
db
1a
29
24
e7
03
d4
2a
d3
13
19
21
04
dd
0a
fa
06
17
0c
34
0d
f0
24
f8
08
0e
c8
03
05
fc
00
de
0e
25
f7
f3
f0
27
e6
15
06
39
1d
00
d7
25
2e
e6
0f
eb
e9
d8
16
03
08
24
12
16
13
e7
00
e2
e7
fe
27
32
e6
04
ff
0a
16
09
ea
10
11
f4
2d
fc
fe
08
f3
dd
fc
28
2f
ef
11
03
0b
25
15
05
ea
e5
fd
08
16
13
19
c5
17
e7
21
08
11
f6
04
d4
18
fa
ca
1c
24
ea
1a
ee
c7
f7
04
03
05
0c
06
fb
f2
f9
f5
f8
ef
f2
03
07
ff
f9
13
14
12
dc
f1
12
09
12
12
eb
1b
de
14
00
db
f2
1a
f2
e4
01
ed
e3
0b
15
f1
0e
fc
fd
04
25
0e
ec
11
fb
f8
ed
fc
00
f4
df
e0
04
01
35
f9
19
1d
fc
fe
f5
2c
e2
ff
21
fd
f1
03
0d
17
07
11
17
e5
f4
1b
0c
07
16
14
eb
df
e5
37
e7
f5
fb
16
d5
00
1d
18
0a
fd
2f
d8
1b
10
10
03
07
1a
e3
e3
04
03
0b
2a
f2
15
09
37
de
f0
f4
27
eb
29
26
12
0a
da
fe
db
f7
06
01
17
fd
db
e8
e4
f9
1f
0c
09
e0
3b
05
3d
eb
f6
3f
e4
0d
f8
ef
3c
e9
10
1a
e5
d1
d6
f1
02
08
ff
fd
19
15
0c
f2
11
06
f1
f2
21
2d
f4
d3
11
ea
14
f6
34
02
14
e1
c0
03
07
11
f0
e0
d9
08
10
ea
f4
f7
d1
05
14
fb
de
fb
26
34
06
ec
cf
da
01
06
08
fe
d9
dd
05
ee
23
de
24
ef
05
06
fa
d6
f1
26
e3
d2
fa
f5
e1
ee
f7
f5
08
11
08
08
2a
1a
bc
f7
dc
f3
11
fc
f2
21
e1
fe
0b
00
e1
ff
13
08
05
08
05
e7
f9
0c
b4
12
05
e5
f5
fb
0b
f6
1c
0a
f0
f4
06
16
10
00
04
01
17
ea
0a
d2
0b
07
01
d0
23
16
03
0b
e9
0d
27
e3
41
f5
18
ec
0a
e0
f0
fb
f2
fa
19
e5
e1
01
f1
e6
06
f1
0a
ff
f9
fe
18
1b
fb
e7
db
d1
e4
ee
01
d3
20
1c
1f
f3
08
e9
28
e9
f4
23
3f
fb
f5
c3
29
09
d6
16
0a
f7
f2
12
06
0f
1b
1d
15
0f
e0
e5
14
11
0d
15
f3
0e
e9
02
17
f1
31
1c
23
fb
dd
ef
0d
f9
14
04
f1
17
21
ee
0d
03
06
fd
e2
25
e7
ec
11
05
eb
f1
fe
f5
11
e3
0a
2a
06
ea
f0
00
f0
1f
d4
2a
d1
00
e3
14
ed
e4
f9
f9
cf
0b
c8
1c
f8
18
f3
ec
0f
f2
de
fe
df
ff
22
17
02
fc
f9
f3
08
fd
f7
07
d0
31
10
dd
03
e4
f3
ea
1b
d1
f8
da
00
f9
df
24
25
f2
0d
fc
07
26
fa
2e
f9
fe
2f
07
ce
09
e3
d8
e9
0a
e1
dd
f9
0a
f0
e7
c9
ed
17
16
14
fd
04
1f
e9
0a
d5
11
f5
e3
14
e5
ec
26
e7
f1
f0
16
d4
20
f9
f9
e8
fc
26
05
ea
fc
0c
02
fa
0d
09
e6
d2
0b
2c
ec
ff
21
2b
01
1e
11
f3
ce
ea
0c
0b
f5
ec
da
d7
fe
d7
ff
ee
f5
35
06
f7
fc
de
1e
14
f2
04
f0
0d
de
04
25
0a
f2
18
2f
12
02
ef
0c
30
d2
19
04
21
ff
cc
31
e5
13
fe
06
04
f3
04
06
