02
f7
09
03
f7
07
17
14
f0
eb
f6
fd
da
fc
ed
f7
f7
fa
07
13
fe
19
f6
06
11
ff
f5
f3
f9
06
ee
00
fe
12
09
06
f4
fe
0d
17
f0
17
1a
17
01
fb
15
1e
21
17
07
eb
01
0d
ea
07
08
0b
ec
f4
f9
ec
21
f9
07
1a
29
15
08
d5
00
00
1e
08
1d
fd
dd
10
ec
23
05
f8
fb
ec
e9
0c
0c
17
f0
1b
fc
1d
f9
f4
02
0e
01
23
f8
e3
01
08
fc
da
2a
13
ed
28
b0
06
dd
08
00
05
0f
f3
1a
0d
0d
17
0d
0d
03
e8
fe
f2
e4
01
f5
3d
02
fe
fc
0d
fc
f7
52
49
cd
59
c5
04
d9
05
07
fe
dd
fe
f2
15
fc
00
f2
f4
01
e9
05
fe
e9
d5
12
0e
07
f6
15
f9
fb
fb
36
48
11
09
00
ff
e0
ef
e5
0d
dd
ff
ff
f0
0c
01
f4
09
fc
19
09
f9
dd
ea
23
01
0b
12
e0
f5
ef
2e
14
26
e4
0f
16
ee
d6
c9
f4
11
00
31
f7
13
fd
10
fb
f6
fa
3e
ff
dc
f6
0a
13
09
0e
f3
ee
ef
ea
1d
27
36
f3
e6
08
e4
aa
b8
12
f6
0f
03
28
0f
f7
33
f7
ea
11
17
0e
ee
0e
09
15
21
d7
1c
e8
f6
d9
19
1a
22
f8
18
ff
dd
ff
c7
ec
de
ea
0e
09
00
e7
22
fe
f8
0d
0f
ca
02
f0
e8
17
1c
b8
df
ff
08
cc
2c
ed
20
e6
0a
3d
e7
f0
91
fd
f4
fa
05
09
17
fa
03
0b
eb
26
1a
ef
fb
f1
02
2c
17
b9
ff
04
f1
d0
1e
cf
08
fe
dd
2f
d0
fc
b4
fd
e5
13
f4
f5
16
18
0f
f0
e5
11
1e
1b
0a
e3
14
23
32
2c
f9
f0
eb
c7
31
ab
13
0e
d3
0f
c7
0c
81
ed
fc
04
0a
13
2a
ee
02
06
0b
18
21
f1
e8
f6
fd
0d
1d
11
ec
e7
ef
c8
16
bf
fe
02
c3
3f
c8
24
b4
f3
00
e5
36
eb
21
ee
1c
f1
ff
14
2d
f7
cc
f2
fc
0a
1c
47
f1
e0
00
da
08
09
12
e4
c6
3e
d8
59
dc
09
00
fd
25
e8
28
fe
ff
08
10
21
3f
0f
16
f4
f4
1d
f8
32
fa
07
e9
ce
f7
07
34
fb
e5
24
cf
27
1b
0b
f3
ee
11
00
0c
d4
fa
f4
18
1a
32
f9
fd
be
05
17
11
0a
f6
e7
d9
de
ef
4b
2e
f0
ef
3b
f3
49
17
f5
fd
e4
1a
1e
1b
e5
fc
0f
01
16
23
0b
f5
fd
fc
06
10
0b
e3
10
0e
d8
dc
39
22
ed
19
32
fa
44
3d
f8
10
0a
1b
01
34
0c
04
e0
03
02
06
f6
04
17
fb
21
11
d3
f8
fc
f5
0f
cd
23
38
e1
33
11
e5
2b
38
ea
ee
fd
2f
05
1c
15
14
09
f6
25
1a
10
eb
f5
0e
0e
1f
c8
eb
06
e1
07
dc
fd
21
e9
2d
02
12
fe
52
f9
e7
07
13
f7
f8
e0
08
e7
e5
13
4b
fd
0b
02
03
f8
44
db
f7
f1
f0
0a
c9
cd
12
01
35
18
0c
0e
4d
ea
e2
fd
f3
05
1d
e1
07
11
07
1f
36
15
ff
16
f7
05
63
de
f0
f0
d6
17
bc
eb
30
f7
08
fb
1b
fb
3a
04
f5
f0
1e
01
1f
25
e7
f0
0f
15
3f
e3
04
fb
fb
12
5a
f3
13
02
fb
15
d7
d4
01
1c
f4
dd
0e
ee
48
fd
08
ed
f2
fb
30
10
03
f5
10
15
0d
0e
06
d2
f3
09
69
12
f2
fd
ff
14
d8
fd
00
06
c2
d5
2c
db
3f
fb
00
02
0f
26
0c
e1
19
1b
ec
16
17
f3
01
ec
fc
e8
3d
fc
ea
e1
12
21
cc
db
06
06
c5
e2
1c
e1
2e
0c
e6
1a
29
1c
3b
fc
15
f2
13
19
21
19
f8
fc
f4
f3
37
28
02
d5
10
1e
e2
ef
1b
07
f5
cb
0f
c2
35
ef
f5
f8
0a
07
05
07
1c
ea
02
27
0e
f2
ed
ea
01
e8
37
1c
02
fa
f3
23
f2
d7
2d
24
d4
ee
20
d9
0c
f6
ef
0b
17
28
f8
f6
f8
f8
f2
16
26
f9
f8
03
10
dd
22
12
02
fe
00
12
f2
d8
3c
11
e1
b9
34
e0
27
1d
f3
0d
12
1a
13
03
1a
f8
fe
21
35
f5
e1
fc
01
e7
12
1a
0b
ff
f8
1b
f1
e4
2a
04
e0
c2
18
e4
1b
ed
fe
f7
19
1f
13
04
0c
07
00
0f
17
ed
f0
e0
ef
ff
f3
07
fa
f3
1c
27
e5
fb
33
04
eb
d0
2a
f5
07
ec
f7
f2
13
21
10
f0
13
eb
e9
04
1f
04
02
ed
fa
d8
fb
fd
e2
09
31
28
eb
ef
1c
ff
f9
dd
02
e8
36
11
e8
eb
1c
de
fe
fb
07
db
fc
0d
31
ee
fa
fe
05
c3
fb
08
f5
e3
0a
25
fd
e2
22
00
e2
be
04
ef
18
f0
f5
0a
40
1e
ec
d3
0a
f8
ee
1e
14
04
fc
07
e0
eb
fc
de
1d
f4
1e
13
ff
0d
35
06
f7
ca
06
e0
21
eb
f2
fd
15
0e
f7
ee
01
09
07
20
31
ec
09
f0
f3
fe
1c
ea
fc
13
ea
21
fe
e9
2f
0d
e5
ed
0e
dd
36
09
e8
f2
21
03
e0
13
09
19
07
17
4f
fb
ef
04
0e
e2
ef
00
c5
ea
14
09
e9
17
10
f8
ec
ec
00
f4
11
f7
fd
d7
19
f1
da
17
f0
fa
ee
06
20
ec
07
07
0d
f3
19
1c
1b
09
0b
3e
2a
ef
35
0c
fa
ee
0d
04
0f
00
14
05
17
1b
1e
15
0e
fe
e9
13
02
ec
0b
fe
01
f1
14
f9
14
0a
09
04
05
04
2b
ed
05
f2
15
ee
1a
ed
fb
fa
06
fe
fe
e3
16
0c
f7
f2
07
12
0d
fb
0c
ea
01
07
fe
f4
d7
13
06
de
27
01
00
01
f6
03
0f
0b
19
0b
fe
26
ed
fb
f0
fd
12
21
18
f4
f8
f4
12
ec
10
f9
03
1a
fb
23
eb
ea
ff
f4
01
06
08
02
f3
e6
08
19
00
ed
e5
f5
1d
fb
eb
fb
07
02
f4
ed
f7
04
13
06
f8
e0
f5
08
ea
fc
12
f6
0d
f8
1a
e9
19
0f
d4
03
1f
11
f8
fb
e9
03
df
f1
1c
f9
f9
f7
24
10
f5
1a
ff
0c
f8
f2
13
ef
0a
11
e6
e2
0b
da
f6
f9
ef
ef
0e
07
ef
08
19
eb
00
26
15
0a
fc
ef
10
0b
09
f8
e1
02
f5
fd
0e
09
21
2a
0f
ed
f2
24
f4
00
1c
20
00
06
e3
f0
ff
fb
f9
05
22
0c
06
01
f8
14
fa
fd
ec
01
02
0e
15
07
35
1b
02
ff
db
00
ff
e2
f7
11
eb
18
09
fc
ff
0a
e7
27
f0
f3
16
0e
18
13
0e
ea
f8
04
01
d9
14
1c
2d
ed
02
d8
1e
da
0a
15
1b
06
e7
ff
fc
08
0f
10
26
0d
fc
1b
fb
02
04
d6
0e
05
fc
fe
e9
fb
1c
f9
0c
f2
1e
e5
0a
ff
21
18
00
e4
1a
1a
ec
0e
f2
f3
e3
11
06
09
19
0d
08
0e
f4
01
eb
f0
ff
0e
26
e9
15
fd
03
09
03
ed
03
11
ff
24
fc
f5
05
fd
e4
06
1a
25
ff
0c
03
01
14
0e
12
f5
ec
ff
07
04
0a
13
e6
0d
ee
0a
03
01
f5
05
e0
14
fb
d1
13
1e
f1
15
f1
d8
fb
05
02
01
05
04
fe
f4
fc
fa
fb
e9
f8
fe
16
fd
f9
09
0d
0d
e5
f8
07
05
0d
06
f1
17
e9
0f
00
e6
f7
19
f6
ef
ff
f2
f3
0b
0f
f6
09
f6
fd
00
28
08
f1
04
fb
f3
ee
00
04
fc
e7
e1
03
04
25
00
11
17
03
ff
f9
1d
e5
ff
1e
ff
f7
05
0a
07
07
0b
1f
eb
f9
0c
07
ff
09
11
f3
e9
eb
22
ed
fc
fb
14
e2
ff
17
12
08
fa
23
e2
1b
0b
0b
05
04
0e
e9
e8
0f
fe
09
17
f4
09
05
2b
e9
f7
f8
18
f1
1c
1c
10
09
e5
06
e3
fa
00
f9
11
07
e5
ed
e9
fa
11
07
06
f5
29
03
25
ee
f1
2d
ed
07
f9
f2
27
ef
12
14
f0
dd
e1
f4
05
06
fe
00
12
14
07
f6
0f
04
f0
f5
15
29
f6
e0
07
f0
0a
fa
29
ff
11
eb
cd
04
03
11
f1
ea
e3
04
0f
f0
f4
f2
de
07
0e
fc
e6
fd
16
28
02
fa
db
e4
fe
04
05
fd
e5
ec
05
f2
18
e6
1d
f0
07
00
fb
e2
f4
1c
e4
de
fe
fe
ea
f3
f7
f8
ff
0e
04
0b
1e
12
cb
f8
e2
f2
0e
00
f9
18
e5
ff
0a
00
ee
ff
0f
0a
04
06
01
e8
fb
0a
c8
0e
06
ed
f1
fd
06
00
14
08
f2
f7
02
0b
0c
fd
01
00
0f
ef
0a
e1
05
04
02
e0
1e
10
03
07
ef
07
19
eb
31
f8
10
f3
03
f1
f3
f8
f6
fd
0f
f0
ec
00
f4
ee
02
f5
05
00
fa
fe
13
14
01
ed
e9
da
ea
f9
ff
df
1a
14
14
f7
04
f5
1a
f2
f2
17
28
f9
f8
d8
20
07
de
10
09
f9
f7
0d
04
0d
12
13
09
07
e8
f4
10
0b
0a
10
f5
08
ef
06
0e
fb
1d
13
12
f9
e8
f1
0b
fc
0d
03
f6
14
14
f1
0b
00
08
ff
e7
16
ef
f4
0e
03
f2
f4
fb
f8
0b
ed
05
18
04
f0
f0
fd
f6
14
dd
1e
db
00
ed
0f
f1
ea
fb
f8
e0
09
d8
19
fc
10
f5
f2
0c
f6
e5
00
e8
ff
1a
0e
04
ff
fc
f8
08
fc
fc
05
db
25
0c
e8
04
e9
f8
f0
17
de
fb
e1
01
ff
e8
1a
1c
f5
09
fc
06
1b
fb
1f
fa
ff
1f
01
dc
03
e8
e2
ef
07
ed
e8
fa
05
f5
ec
db
f3
11
12
0f
fa
03
17
f0
06
de
0e
fb
ec
0f
e8
f4
1c
f0
f9
f4
11
e1
17
fc
fb
f1
fc
1d
03
f0
fc
09
02
f9
07
07
ea
dd
09
21
f1
fe
1a
1b
03
17
07
f7
dc
ee
08
08
fc
f3
e4
e2
fe
e4
fd
f3
f6
28
06
f8
fe
e4
16
10
fc
06
f4
07
e8
04
19
08
f6
11
23
0a
02
ef
04
24
dc
13
04
1c
ff
da
23
ea
0c
ff
00
04
f8
02
09
